TRT-101501-MinMaxCalibration
images: 3c010204
/model.0/conv/Conv_output_0: 3f127d10
/model.0/act/Sigmoid_output_0: 3c010204
/model.0/act/Mul_output_0: 3f127d10
/model.1/conv/Conv_output_0: 3f9760b0
/model.1/act/Sigmoid_output_0: 3c010204
/model.1/act/Mul_output_0: 3f9760b0
/model.2/cv1/conv/Conv_output_0: 3f44b5e3
/model.2/cv1/act/Sigmoid_output_0: 3c010204
/model.2/cv1/act/Mul_output_0: 3ef65ff6
/model.2/Split_output_0: 3ef65ff6
/model.2/Split_output_1: 3eb64704
/model.2/m.0/cv1/conv/Conv_output_0: 3d422e4f
/model.2/m.0/cv1/act/Sigmoid_output_0: 3beaacac
/model.2/m.0/cv1/act/Mul_output_0: 3c876883
/model.2/m.0/cv2/conv/Conv_output_0: 3f086996
/model.2/m.0/cv2/act/Sigmoid_output_0: 3c010204
/model.2/m.0/cv2/act/Mul_output_0: 3e830805
/model.2/m.0/Add_output_0: 3ec5c85f
/model.2/Concat_output_0: 3ef65ff6
/model.2/cv2/conv/Conv_output_0: 3efb73e5
/model.2/cv2/act/Sigmoid_output_0: 3c010204
/model.2/cv2/act/Mul_output_0: 3e5b4963
/model.3/conv/Conv_output_0: 3df7b16a
/model.3/act/Sigmoid_output_0: 3c010167
/model.3/act/Mul_output_0: 3daf887f
/model.4/cv1/conv/Conv_output_0: 3da75d6f
/model.4/cv1/act/Sigmoid_output_0: 3c0035c6
/model.4/cv1/act/Mul_output_0: 3d22d060
/model.4/Split_output_0: 3d22d060
/model.4/Split_output_1: 3d128fe2
/model.4/m.0/cv1/conv/Conv_output_0: 3d25aaa8
/model.4/m.0/cv1/act/Sigmoid_output_0: 3c003d96
/model.4/m.0/cv1/act/Mul_output_0: 3d241be3
/model.4/m.0/cv2/conv/Conv_output_0: 3dae4e04
/model.4/m.0/cv2/act/Sigmoid_output_0: 3c00e1dc
/model.4/m.0/cv2/act/Mul_output_0: 3d5f65a5
/model.4/m.0/Add_output_0: 3d737ef2
/model.4/Concat_output_0: 3d737ef2
/model.4/cv2/conv/Conv_output_0: 3d73c76e
/model.4/cv2/act/Sigmoid_output_0: 3c0051ca
/model.4/cv2/act/Mul_output_0: 3d27b5d7
/model.5/conv/Conv_output_0: 3d84684c
/model.5/act/Sigmoid_output_0: 3c00b4b6
/model.5/act/Mul_output_0: 3d42d464
/model.6/cv1/conv/Conv_output_0: 3d728995
/model.6/cv1/act/Sigmoid_output_0: 3bffdae8
/model.6/cv1/act/Mul_output_0: 3d18b067
/model.6/Split_output_0: 3d177aee
/model.6/Split_output_1: 3d18b067
/model.6/m.0/cv1/conv/Conv_output_0: 3d4e2fdd
/model.6/m.0/cv2/conv/Conv_output_0: 3df559a6
/model.6/m.0/cv1/act/Sigmoid_output_0: 3bfb8367
/model.6/m.0/cv2/act/Sigmoid_output_0: 3c00f973
/model.6/m.0/cv1/act/Mul_output_0: 3ce5d63c
/model.6/m.0/cv2/act/Mul_output_0: 3d852f18
/model.6/m.0/m/m.0/cv1/conv/Conv_output_0: 3d875ad7
/model.6/m.0/m/m.0/cv1/act/Sigmoid_output_0: 3c0074e4
/model.6/m.0/m/m.0/cv1/act/Mul_output_0: 3d2f0e3a
/model.6/m.0/m/m.0/cv2/conv/Conv_output_0: 3d3821ab
/model.6/m.0/m/m.0/cv2/act/Sigmoid_output_0: 3bfc56cc
/model.6/m.0/m/m.0/cv2/act/Mul_output_0: 3cef5f70
/model.6/m.0/m/m.0/Add_output_0: 3d0fdfb2
/model.6/m.0/m/m.1/cv1/conv/Conv_output_0: 3d2c728f
/model.6/m.0/m/m.1/cv1/act/Sigmoid_output_0: 3c006574
/model.6/m.0/m/m.1/cv1/act/Mul_output_0: 3d2ba148
/model.6/m.0/m/m.1/cv2/conv/Conv_output_0: 3d8bfe63
/model.6/m.0/m/m.1/cv2/act/Sigmoid_output_0: 3c00fc72
/model.6/m.0/m/m.1/cv2/act/Mul_output_0: 3d8bf858
/model.6/m.0/m/m.1/Add_output_0: 3d9ebb2f
/model.6/m.0/Concat_output_0: 3d9ebb2f
/model.6/m.0/cv3/conv/Conv_output_0: 3d8f28dd
/model.6/m.0/cv3/act/Sigmoid_output_0: 3c00fd6d
/model.6/m.0/cv3/act/Mul_output_0: 3d8f23c6
/model.6/Concat_output_0: 3d8f23c6
/model.6/cv2/conv/Conv_output_0: 3d76501b
/model.6/cv2/act/Sigmoid_output_0: 3bffd83a
/model.6/cv2/act/Mul_output_0: 3d1886d0
/model.7/conv/Conv_output_0: 3d862ae9
/model.7/act/Sigmoid_output_0: 3c005db7
/model.7/act/Mul_output_0: 3d2a090d
/model.8/cv1/conv/Conv_output_0: 3d81b0ee
/model.8/cv1/act/Sigmoid_output_0: 3c00aba4
/model.8/cv1/act/Mul_output_0: 3d3f315d
/model.8/Split_output_0: 3d3f315d
/model.8/Split_output_1: 3d3c0aee
/model.8/m.0/cv1/conv/Conv_output_0: 3d237c1e
/model.8/m.0/cv2/conv/Conv_output_0: 3d96aa6f
/model.8/m.0/cv1/act/Sigmoid_output_0: 3bf0f50f
/model.8/m.0/cv2/act/Sigmoid_output_0: 3c00f9c3
/model.8/m.0/cv1/act/Mul_output_0: 3c9f8295
/model.8/m.0/cv2/act/Mul_output_0: 3d85c5c8
/model.8/m.0/m/m.0/cv1/conv/Conv_output_0: 3d7f8432
/model.8/m.0/m/m.0/cv1/act/Sigmoid_output_0: 3c00f60d
/model.8/m.0/m/m.0/cv1/act/Mul_output_0: 3d7f6c7f
/model.8/m.0/m/m.0/cv2/conv/Conv_output_0: 3d7ece12
/model.8/m.0/m/m.0/cv2/act/Sigmoid_output_0: 3c00e9b0
/model.8/m.0/m/m.0/cv2/act/Mul_output_0: 3d68740b
/model.8/m.0/m/m.0/Add_output_0: 3d62214b
/model.8/m.0/m/m.1/cv1/conv/Conv_output_0: 3d8f2434
/model.8/m.0/m/m.1/cv1/act/Sigmoid_output_0: 3c00b566
/model.8/m.0/m/m.1/cv1/act/Mul_output_0: 3d431eef
/model.8/m.0/m/m.1/cv2/conv/Conv_output_0: 3da654ef
/model.8/m.0/m/m.1/cv2/act/Sigmoid_output_0: 3c0100ea
/model.8/m.0/m/m.1/cv2/act/Mul_output_0: 3da65383
/model.8/m.0/m/m.1/Add_output_0: 3de88406
/model.8/m.0/Concat_output_0: 3de88406
/model.8/m.0/cv3/conv/Conv_output_0: 3d8326bd
/model.8/m.0/cv3/act/Sigmoid_output_0: 3c00f84c
/model.8/m.0/cv3/act/Mul_output_0: 3d831cdc
/model.8/Concat_output_0: 3d831cdc
/model.8/cv2/conv/Conv_output_0: 3d708099
/model.8/cv2/act/Sigmoid_output_0: 3c009d6e
/model.8/cv2/act/Mul_output_0: 3d3a3433
/model.9/cv1/conv/Conv_output_0: 3d53be07
/model.9/m/MaxPool_output_0: 3d53be07
/model.9/m_1/MaxPool_output_0: 3d53be07
/model.9/m_2/MaxPool_output_0: 3d53be07
/model.9/Concat_output_0: 3d53be07
/model.9/cv2/conv/Conv_output_0: 3db98df4
/model.9/cv2/act/Sigmoid_output_0: 3c005c6a
/model.9/cv2/act/Mul_output_0: 3d29c613
/model.9/Add_output_0: 3da84e73
/model.10/cv1/conv/Conv_output_0: 3d810e61
/model.10/cv1/act/Sigmoid_output_0: 3c00f702
/model.10/cv1/act/Mul_output_0: 3d81035e
/model.10/Split_output_0: 3d81035e
/model.10/Split_output_1: 3d54bdab
/model.10/m/m.0/attn/qkv/conv/Conv_output_0: 3dd4645f
/model.10/m/m.0/attn/Reshape_output_0: 3dd4645f
/model.10/m/m.0/attn/Split_output_0: 3d2e3510
/model.10/m/m.0/attn/Split_output_1: 3d83dcc8
/model.10/m/m.0/attn/Split_output_2: 3dd4645f
/model.10/m/m.0/attn/Transpose_output_0: 3d2e3510
/model.10/m/m.0/attn/Reshape_2_output_0: 3dd4645f
/model.10/m/m.0/attn/MatMul_output_0: 3f215c78
/model.10/m/m.0/attn/pe/conv/Conv_output_0: 3d484218
/model.10/m/m.0/attn/Constant_1_output_0_output: 3ab671d7
ONNXTRT_Broadcast_output: 3ab671d7
/model.10/m/m.0/attn/Mul_output_0: 3de432ff
/model.10/m/m.0/attn/Softmax_output: 3bca52f6
/model.10/m/m.0/attn/Softmax_output_0: 3bca52f6
/model.10/m/m.0/attn/Transpose_1_output_0: 3bca52f6
/model.10/m/m.0/attn/MatMul_1_output_0: 3d6f73f8
/model.10/m/m.0/attn/Reshape_1_output_0: 3d6f73f8
/model.10/m/m.0/attn/Add_output_0: 3d05e43e
/model.10/m/m.0/attn/proj/conv/Conv_output_0: 3d03bade
/model.10/m/m.0/Add_output_0: 3d43556b
/model.10/m/m.0/ffn/ffn.0/conv/Conv_output_0: 3d439a1c
/model.10/m/m.0/ffn/ffn.0/act/Sigmoid_output_0: 3bfb1ffa
/model.10/m/m.0/ffn/ffn.0/act/Mul_output_0: 3ce1bfbb
/model.10/m/m.0/ffn/ffn.1/conv/Conv_output_0: 3d219f99
/model.10/m/m.0/Add_1_output_0: 3d6ad60c
/model.10/Concat_output_0: 3d81035e
/model.10/cv2/conv/Conv_output_0: 3d90efcb
/model.10/cv2/act/Sigmoid_output_0: 3c00d2bc
/model.10/cv2/act/Mul_output_0: 3d52df33
/model.11/Resize_output_0: 3d52df33
/model.12/Concat_output_0: 3d52df33
/model.13/cv1/conv/Conv_output_0: 3d8a1c95
/model.13/cv1/act/Sigmoid_output_0: 3c00a371
/model.13/cv1/act/Mul_output_0: 3d3c3984
/model.13/Split_output_0: 3d3c3984
/model.13/Split_output_1: 3d229997
/model.13/m.0/cv1/conv/Conv_output_0: 3d03e431
/model.13/m.0/cv2/conv/Conv_output_0: 3da263f9
/model.13/m.0/cv1/act/Sigmoid_output_0: 3bf1a63e
/model.13/m.0/cv2/act/Sigmoid_output_0: 3c01009d
/model.13/m.0/cv1/act/Mul_output_0: 3ca2a47c
/model.13/m.0/cv2/act/Mul_output_0: 3da26235
/model.13/m.0/m/m.0/cv1/conv/Conv_output_0: 3d32c236
/model.13/m.0/m/m.0/cv1/act/Sigmoid_output_0: 3bfd1657
/model.13/m.0/m/m.0/cv1/act/Mul_output_0: 3cf93434
/model.13/m.0/m/m.0/cv2/conv/Conv_output_0: 3d5f723e
/model.13/m.0/m/m.0/cv2/act/Sigmoid_output_0: 3c00c7d8
/model.13/m.0/m/m.0/cv2/act/Mul_output_0: 3d4c1d47
/model.13/m.0/m/m.0/Add_output_0: 3d512f6f
/model.13/m.0/m/m.1/cv1/conv/Conv_output_0: 3d765d18
/model.13/m.0/m/m.1/cv1/act/Sigmoid_output_0: 3bfd8659
/model.13/m.0/m/m.1/cv1/act/Mul_output_0: 3cffa512
/model.13/m.0/m/m.1/cv2/conv/Conv_output_0: 3da79468
/model.13/m.0/m/m.1/cv2/act/Sigmoid_output_0: 3c0100ff
/model.13/m.0/m/m.1/cv2/act/Mul_output_0: 3da79315
/model.13/m.0/m/m.1/Add_output_0: 3dd71843
/model.13/m.0/Concat_output_0: 3dd71843
/model.13/m.0/cv3/conv/Conv_output_0: 3d70c926
/model.13/m.0/cv3/act/Sigmoid_output_0: 3c00df3b
/model.13/m.0/cv3/act/Mul_output_0: 3d5cd9a9
/model.13/Concat_output_0: 3d5cd9a9
/model.13/cv2/conv/Conv_output_0: 3d5bdf47
/model.13/cv2/act/Sigmoid_output_0: 3bfed7a4
/model.13/cv2/act/Mul_output_0: 3d0bb625
/model.14/Resize_output_0: 3d0bb625
/model.15/Concat_output_0: 3d27b5d7
/model.16/cv1/conv/Conv_output_0: 3d2361fa
/model.16/cv1/act/Sigmoid_output_0: 3bfe6f5f
/model.16/cv1/act/Mul_output_0: 3d0798f8
/model.16/Split_output_0: 3d0798f8
/model.16/Split_output_1: 3d03470d
/model.16/m.0/cv1/conv/Conv_output_0: 3c85c3e0
/model.16/m.0/cv2/conv/Conv_output_0: 3d8ca806
/model.16/m.0/cv1/act/Sigmoid_output_0: 3bd0035f
/model.16/m.0/cv2/act/Sigmoid_output_0: 3c00bc61
/model.16/m.0/cv1/act/Mul_output_0: 3c144384
/model.16/m.0/cv2/act/Mul_output_0: 3d463d36
/model.16/m.0/m/m.0/cv1/conv/Conv_output_0: 3d171881
/model.16/m.0/m/m.0/cv1/act/Sigmoid_output_0: 3bffa7bb
/model.16/m.0/m/m.0/cv1/act/Mul_output_0: 3d15b69f
/model.16/m.0/m/m.0/cv2/conv/Conv_output_0: 3d3bb4a0
/model.16/m.0/m/m.0/cv2/act/Sigmoid_output_0: 3bfebb08
/model.16/m.0/m/m.0/cv2/act/Mul_output_0: 3d0a8937
/model.16/m.0/m/m.0/Add_output_0: 3d0ae806
/model.16/m.0/m/m.1/cv1/conv/Conv_output_0: 3d61de0e
/model.16/m.0/m/m.1/cv1/act/Sigmoid_output_0: 3bfc58b0
/model.16/m.0/m/m.1/cv1/act/Mul_output_0: 3cef76c2
/model.16/m.0/m/m.1/cv2/conv/Conv_output_0: 3ded5a87
/model.16/m.0/m/m.1/cv2/act/Sigmoid_output_0: 3c010201
/model.16/m.0/m/m.1/cv2/act/Mul_output_0: 3ded5a81
/model.16/m.0/m/m.1/Add_output_0: 3e0e124b
/model.16/m.0/Concat_output_0: 3e0e124b
/model.16/m.0/cv3/conv/Conv_output_0: 3dbec9b6
/model.16/m.0/cv3/act/Sigmoid_output_0: 3c01012d
/model.16/m.0/cv3/act/Mul_output_0: 3daa92bd
/model.16/Concat_output_0: 3daa92bd
/model.16/cv2/conv/Conv_output_0: 3e4211bd
/model.16/cv2/act/Sigmoid_output_0: 3c0023b8
/model.16/cv2/act/Mul_output_0: 3d1ffe45
/model.17/conv/Conv_output_0: 3d69d8f0
/model.23/one2one_cv2.0/one2one_cv2.0.0/conv/Conv_output_0: 3e40f5e7
/model.23/one2one_cv3.0/one2one_cv3.0.0/one2one_cv3.0.0.0/conv/Conv_output_0: 3db90439
/model.17/act/Sigmoid_output_0: 3bfe2d88
/model.23/one2one_cv2.0/one2one_cv2.0.0/act/Sigmoid_output_0: 3c0101ff
/model.23/one2one_cv3.0/one2one_cv3.0.0/one2one_cv3.0.0.0/act/Sigmoid_output_0: 3c0101ac
/model.17/act/Mul_output_0: 3d0538cd
/model.23/one2one_cv2.0/one2one_cv2.0.0/act/Mul_output_0: 3de723b4
/model.23/one2one_cv3.0/one2one_cv3.0.0/one2one_cv3.0.0.0/act/Mul_output_0: 3db903bb
/model.18/Concat_output_0: 3d0bb625
/model.23/one2one_cv2.0/one2one_cv2.0.1/conv/Conv_output_0: 3dde9990
/model.23/one2one_cv3.0/one2one_cv3.0.0/one2one_cv3.0.0.1/conv/Conv_output_0: 3d99294a
/model.19/cv1/conv/Conv_output_0: 3d76b021
/model.23/one2one_cv2.0/one2one_cv2.0.1/act/Sigmoid_output_0: 3c005c61
/model.23/one2one_cv3.0/one2one_cv3.0.0/one2one_cv3.0.0.1/act/Sigmoid_output_0: 3c00f912
/model.19/cv1/act/Sigmoid_output_0: 3c00dd1d
/model.23/one2one_cv2.0/one2one_cv2.0.1/act/Mul_output_0: 3d29c43e
/model.23/one2one_cv3.0/one2one_cv3.0.0/one2one_cv3.0.0.1/act/Mul_output_0: 3d847b28
/model.19/cv1/act/Mul_output_0: 3d5aeeb2
/model.23/one2one_cv2.0/one2one_cv2.0.2/Conv_output_0: 3d651689
/model.23/one2one_cv3.0/one2one_cv3.0.1/one2one_cv3.0.1.0/conv/Conv_output_0: 3eb8bf27
/model.19/Split_output_0: 3d5aeeb2
/model.19/Split_output_1: 3d37183f
/model.23/Reshape_output_0: 3d651689
/model.23/one2one_cv3.0/one2one_cv3.0.1/one2one_cv3.0.1.0/act/Sigmoid_output_0: 3c010204
/model.19/m.0/cv1/conv/Conv_output_0: 3d00c64f
/model.19/m.0/cv2/conv/Conv_output_0: 3d8b0353
/model.23/one2one_cv3.0/one2one_cv3.0.1/one2one_cv3.0.1.0/act/Mul_output_0: 3e3fd258
/model.19/m.0/cv1/act/Sigmoid_output_0: 3bd278a2
/model.19/m.0/cv2/act/Sigmoid_output_0: 3c00faba
/model.23/one2one_cv3.0/one2one_cv3.0.1/one2one_cv3.0.1.1/conv/Conv_output_0: 3ec7046b
/model.19/m.0/cv1/act/Mul_output_0: 3c1c8e9e
/model.19/m.0/cv2/act/Mul_output_0: 3d87c0a8
/model.23/one2one_cv3.0/one2one_cv3.0.1/one2one_cv3.0.1.1/act/Sigmoid_output_0: 3c010204
/model.19/m.0/m/m.0/cv1/conv/Conv_output_0: 3d59e7b3
/model.23/one2one_cv3.0/one2one_cv3.0.1/one2one_cv3.0.1.1/act/Mul_output_0: 3e92d187
/model.19/m.0/m/m.0/cv1/act/Sigmoid_output_0: 3bfd187b
/model.23/one2one_cv3.0/one2one_cv3.0.2/Conv_output_0: 3e71e4d4
/model.19/m.0/m/m.0/cv1/act/Mul_output_0: 3cf9525f
/model.23/Reshape_3_output_0: 3e71e4d4
/model.19/m.0/m/m.0/cv2/conv/Conv_output_0: 3d78fcca
/model.19/m.0/m/m.0/cv2/act/Sigmoid_output_0: 3bfeea41
/model.19/m.0/m/m.0/cv2/act/Mul_output_0: 3d0c7f62
/model.19/m.0/m/m.0/Add_output_0: 3d086bc8
/model.19/m.0/m/m.1/cv1/conv/Conv_output_0: 3d834a76
/model.19/m.0/m/m.1/cv1/act/Sigmoid_output_0: 3c001172
/model.19/m.0/m/m.1/cv1/act/Mul_output_0: 3d1d5a5b
/model.19/m.0/m/m.1/cv2/conv/Conv_output_0: 3e49af0f
/model.19/m.0/m/m.1/cv2/act/Sigmoid_output_0: 3c010204
/model.19/m.0/m/m.1/cv2/act/Mul_output_0: 3e49af0f
/model.19/m.0/m/m.1/Add_output_0: 3e5d1ade
/model.19/m.0/Concat_output_0: 3e5d1ade
/model.19/m.0/cv3/conv/Conv_output_0: 3e85be1c
/model.19/m.0/cv3/act/Sigmoid_output_0: 3c01011f
/model.19/m.0/cv3/act/Mul_output_0: 3da99321
/model.19/Concat_output_0: 3da99321
/model.19/cv2/conv/Conv_output_0: 3e43e563
/model.19/cv2/act/Sigmoid_output_0: 3c005a01
/model.19/cv2/act/Mul_output_0: 3d294b3b
/model.20/conv/Conv_output_0: 3db41cc1
/model.23/one2one_cv2.1/one2one_cv2.1.0/conv/Conv_output_0: 3db2cf2a
/model.23/one2one_cv3.1/one2one_cv3.1.0/one2one_cv3.1.0.0/conv/Conv_output_0: 3e1f5299
/model.20/act/Sigmoid_output_0: 3c00a300
/model.23/one2one_cv2.1/one2one_cv2.1.0/act/Sigmoid_output_0: 3c010182
/model.23/one2one_cv3.1/one2one_cv3.1.0/one2one_cv3.1.0.0/act/Sigmoid_output_0: 3c010204
/model.20/act/Mul_output_0: 3d3c12a2
/model.23/one2one_cv2.1/one2one_cv2.1.0/act/Mul_output_0: 3db2ce76
/model.23/one2one_cv3.1/one2one_cv3.1.0/one2one_cv3.1.0.0/act/Mul_output_0: 3e1f5299
/model.21/Concat_output_0: 3d52df33
/model.23/one2one_cv2.1/one2one_cv2.1.1/conv/Conv_output_0: 3d766f4d
/model.23/one2one_cv3.1/one2one_cv3.1.0/one2one_cv3.1.0.1/conv/Conv_output_0: 3e18d590
/model.22/cv1/conv/Conv_output_0: 3da655c7
/model.23/one2one_cv2.1/one2one_cv2.1.1/act/Sigmoid_output_0: 3c009e35
/model.23/one2one_cv3.1/one2one_cv3.1.0/one2one_cv3.1.0.1/act/Sigmoid_output_0: 3c00f847
/model.22/cv1/act/Sigmoid_output_0: 3c00fd28
/model.23/one2one_cv2.1/one2one_cv2.1.1/act/Mul_output_0: 3d3a7584
/model.23/one2one_cv3.1/one2one_cv3.1.0/one2one_cv3.1.0.1/act/Mul_output_0: 3d8314a6
/model.22/cv1/act/Mul_output_0: 3d8e2e94
/model.23/one2one_cv2.1/one2one_cv2.1.2/Conv_output_0: 3dab381e
/model.23/one2one_cv3.1/one2one_cv3.1.1/one2one_cv3.1.1.0/conv/Conv_output_0: 3ebbd460
/model.22/Split_output_0: 3d8e2e94
/model.22/Split_output_1: 3d14972b
/model.23/Reshape_1_output_0: 3dab381e
/model.23/one2one_cv3.1/one2one_cv3.1.1/one2one_cv3.1.1.0/act/Sigmoid_output_0: 3c010204
/model.22/m.0/m.0.0/cv1/conv/Conv_output_0: 3d5ecb01
/model.23/one2one_cv3.1/one2one_cv3.1.1/one2one_cv3.1.1.0/act/Mul_output_0: 3e433f19
/model.22/m.0/m.0.0/cv1/act/Sigmoid_output_0: 3c001da7
/model.23/one2one_cv3.1/one2one_cv3.1.1/one2one_cv3.1.1.1/conv/Conv_output_0: 3f8329fb
/model.22/m.0/m.0.0/cv1/act/Mul_output_0: 3d1f1781
/model.23/one2one_cv3.1/one2one_cv3.1.1/one2one_cv3.1.1.1/act/Sigmoid_output_0: 3c010204
/model.22/m.0/m.0.0/cv2/conv/Conv_output_0: 3d9a9e4d
/model.23/one2one_cv3.1/one2one_cv3.1.1/one2one_cv3.1.1.1/act/Mul_output_0: 3f8329fb
/model.22/m.0/m.0.0/cv2/act/Sigmoid_output_0: 3c00fafa
/model.23/one2one_cv3.1/one2one_cv3.1.2/Conv_output_0: 3f40c473
/model.22/m.0/m.0.0/cv2/act/Mul_output_0: 3d884d8a
/model.23/Reshape_4_output_0: 3f40c473
/model.22/m.0/m.0.0/Add_output_0: 3d83d38a
/model.22/m.0/m.0.1/attn/qkv/conv/Conv_output_0: 3d8fb2a1
/model.22/m.0/m.0.1/attn/Reshape_output_0: 3d8fb2a1
/model.22/m.0/m.0.1/attn/Split_output_0: 3d608ab2
/model.22/m.0/m.0.1/attn/Split_output_1: 3d53ef95
/model.22/m.0/m.0.1/attn/Split_output_2: 3d8fb2a1
/model.22/m.0/m.0.1/attn/Transpose_output_0: 3d608ab2
/model.22/m.0/m.0.1/attn/Reshape_2_output_0: 3d8fb2a1
/model.22/m.0/m.0.1/attn/MatMul_output_0: 3f591b16
/model.22/m.0/m.0.1/attn/pe/conv/Conv_output_0: 3dac12f2
ONNXTRT_Broadcast_47_output: 3ab671d7
/model.22/m.0/m.0.1/attn/Mul_output_0: 3e198459
/model.22/m.0/m.0.1/attn/Softmax_output: 3be466f2
/model.22/m.0/m.0.1/attn/Softmax_output_0: 3be466f2
/model.22/m.0/m.0.1/attn/Transpose_1_output_0: 3be466f2
/model.22/m.0/m.0.1/attn/MatMul_1_output_0: 3d56f98d
/model.22/m.0/m.0.1/attn/Reshape_1_output_0: 3d56f98d
/model.22/m.0/m.0.1/attn/Add_output_0: 3da54fba
/model.22/m.0/m.0.1/attn/proj/conv/Conv_output_0: 3d2c9104
/model.22/m.0/m.0.1/Add_output_0: 3db3f89f
/model.22/m.0/m.0.1/ffn/ffn.0/conv/Conv_output_0: 3e04c4e8
/model.22/m.0/m.0.1/ffn/ffn.0/act/Sigmoid_output_0: 3c0101fd
/model.22/m.0/m.0.1/ffn/ffn.0/act/Mul_output_0: 3de1a387
/model.22/m.0/m.0.1/ffn/ffn.1/conv/Conv_output_0: 3da6637e
/model.22/m.0/m.0.1/Add_1_output_0: 3db4fea7
/model.22/Concat_output_0: 3db4fea7
/model.22/cv2/conv/Conv_output_0: 3e56e083
/model.22/cv2/act/Sigmoid_output_0: 3c010201
/model.22/cv2/act/Mul_output_0: 3ded2944
/model.23/one2one_cv2.2/one2one_cv2.2.0/conv/Conv_output_0: 3d82a439
/model.23/one2one_cv3.2/one2one_cv3.2.0/one2one_cv3.2.0.0/conv/Conv_output_0: 3e6f43e3
/model.23/one2one_cv2.2/one2one_cv2.2.0/act/Sigmoid_output_0: 3c00f7fe
/model.23/one2one_cv3.2/one2one_cv3.2.0/one2one_cv3.2.0.0/act/Sigmoid_output_0: 3c010204
/model.23/one2one_cv2.2/one2one_cv2.2.0/act/Mul_output_0: 3d829a13
/model.23/one2one_cv3.2/one2one_cv3.2.0/one2one_cv3.2.0.0/act/Mul_output_0: 3e6f43e3
/model.23/one2one_cv2.2/one2one_cv2.2.1/conv/Conv_output_0: 3dcdc81f
/model.23/one2one_cv3.2/one2one_cv3.2.0/one2one_cv3.2.0.1/conv/Conv_output_0: 3dddac10
/model.23/one2one_cv2.2/one2one_cv2.2.1/act/Sigmoid_output_0: 3c0101ec
/model.23/one2one_cv3.2/one2one_cv3.2.0/one2one_cv3.2.0.1/act/Sigmoid_output_0: 3c010146
/model.23/one2one_cv2.2/one2one_cv2.2.1/act/Mul_output_0: 3dcdc7f9
/model.23/one2one_cv3.2/one2one_cv3.2.0/one2one_cv3.2.0.1/act/Mul_output_0: 3dac7979
/model.23/one2one_cv2.2/one2one_cv2.2.2/Conv_output_0: 3e053cd2
/model.23/one2one_cv3.2/one2one_cv3.2.1/one2one_cv3.2.1.0/conv/Conv_output_0: 3f000b10
/model.23/Reshape_2_output_0: 3e053cd2
/model.23/one2one_cv3.2/one2one_cv3.2.1/one2one_cv3.2.1.0/act/Sigmoid_output_0: 3c010204
/model.23/Concat_output_0: 3e053cd2
/model.23/one2one_cv3.2/one2one_cv3.2.1/one2one_cv3.2.1.0/act/Mul_output_0: 3ee2d28c
/model.23/one2one_cv3.2/one2one_cv3.2.1/one2one_cv3.2.1.1/conv/Conv_output_0: 3f16dee8
/model.23/Unsqueeze_1_output_0: 3bebc167
/model.23/GatherElements_1_output_0: 40a21b00
/model.23/ReduceMax_output_0: 3bebc167
/model.23/TopK_output_0: 0
/model.23/Split_output_1: 3bebc167
/model.23/Split_output_0: 40c81de2
/model.23/Transpose_output_0: 40c81de2
/model.23/Cast_2_output_0: 3f1d3a75
/model.23/Flatten_output_0: 3bebc167
/model.23/Concat_3_output_0: 40c81de2
/model.23/Slice_output_0: 3e053cd2
/model.23/Concat_1_output_0: 3f40c473
/model.23/Add_1_output_0: 3f21e2d8
/model.23/Constant_13_output_0_output: 3f204081
/model.23/Mul_2_output_0: 40c81de2
ONNXTRT_Broadcast_114_output: 3e810204
/model.23/Reshape_5_output_0: 3f17060a
/model.23/Constant_14_output_0_output: 3e810204
/model.23/Sigmoid_output_0: 3bebc167
/model.23/one2one_cv3.2/one2one_cv3.2.2/Conv_output_0: 3f17060a
/model.23/TopK_1_output_0: 3bebc167
/model.23/Concat_2_output_0: 3f21e2d8
/model.23/GatherElements_output_0: 3bebc167
/model.23/Sub_output_0: 3f210933
output0: 40a21b00
/model.23/Constant_12_output_0_output: 3f204081
/model.23/one2one_cv3.2/one2one_cv3.2.1/one2one_cv3.2.1.1/act/Sigmoid_output_0: 3c010204
/model.23/one2one_cv3.2/one2one_cv3.2.1/one2one_cv3.2.1.1/act/Mul_output_0: 3f16dee8
/model.23/Slice_1_output_0: 3dfb3002
